"builtin.module"() ({
  "func.func"() <{function_type = (tensor<*xf32>) -> (), sym_name = "printMemrefF32", sym_visibility = "private"}> ({
  }) : () -> ()
  "func.func"() <{function_type = () -> (tensor<8192x1x160xf32>, tensor<8192x1x160xf32>), sym_name = "RotaryEmbedding", sym_visibility = "private"}> ({
    %0 = "mix.prim.constant"() <{value = dense<[0, 2, 4, 6, 8, 10, 12, 14, 16, 18, 20, 22, 24, 26, 28, 30, 32, 34, 36, 38, 40, 42, 44, 46, 48, 50, 52, 54, 56, 58, 60, 62, 64, 66, 68, 70, 72, 74, 76, 78, 80, 82, 84, 86, 88, 90, 92, 94, 96, 98, 100, 102, 104, 106, 108, 110, 112, 114, 116, 118, 120, 122, 124, 126, 128, 130, 132, 134, 136, 138, 140, 142, 144, 146, 148, 150, 152, 154, 156, 158]> : tensor<80xi64>}> : () -> tensor<80xi64>
    %1 = "mix.prim.convert"(%0) <{element_ty = f32}> : (tensor<80xi64>) -> tensor<80xf32>
    %2 = "mix.prim.constant"() <{value = 160 : i64}> : () -> i64
    %3 = "mix.prim.div"(%1, %2) : (tensor<80xf32>, i64) -> tensor<80xf32>
    %4 = "mix.prim.constant"() <{value = 3.041600e+04 : f16}> : () -> f16
    %5 = "mix.prim.pow"(%4, %3) : (f16, tensor<80xf32>) -> tensor<80xf32>
    %6 = "mix.prim.reciprocal"(%5) : (tensor<80xf32>) -> tensor<80xf32>
    %7 = "mix.prim.constant"() <{value = 1.000000e+00 : f16}> : () -> f16
    %8 = "mix.prim.mul"(%7, %6) : (f16, tensor<80xf32>) -> tensor<80xf32>
    %9 = "mix.prim.constant"() <{value = dense<"0x000000000000803F0000004000004040000080400000A0400000C0400000E0400000004100001041000020410000304100004041000050410000604100007041000080410000884100009041000098410000A0410000A8410000B0410000B8410000C0410000C8410000D0410000D8410000E0410000E8410000F0410000F84100000042000004420000084200000C4200001042000014420000184200001C4200002042000024420000284200002C4200003042000034420000384200003C4200004042000044420000484200004C4200005042000054420000584200005C4200006042000064420000684200006C4200007042000074420000784200007C42000080420000824200008442000086420000884200008A4200008C4200008E42000090420000924200009442000096420000984200009A4200009C4200009E420000A0420000A2420000A4420000A6420000A8420000AA420000AC420000AE420000B0420000B2420000B4420000B6420000B8420000BA420000BC420000BE420000C0420000C2420000C4420000C6420000C8420000CA420000CC420000CE420000D0420000D2420000D4420000D6420000D8420000DA420000DC420000DE420000E0420000E2420000E4420000E6420000E8420000EA420000EC420000EE420000F0420000F2420000F4420000F6420000F8420000FA420000FC420000FE420000004300000143000002430000034300000443000005430000064300000743000008430000094300000A4300000B4300000C4300000D4300000E4300000F430000104300001143000012430000134300001443000015430000164300001743000018430000194300001A4300001B4300001C4300001D4300001E4300001F430000204300002143000022430000234300002443000025430000264300002743000028430000294300002A4300002B4300002C4300002D4300002E4300002F430000304300003143000032430000334300003443000035430000364300003743000038430000394300003A4300003B4300003C4300003D4300003E4300003F430000404300004143000042430000434300004443000045430000464300004743000048430000494300004A4300004B4300004C4300004D4300004E4300004F430000504300005143000052430000534300005443000055430000564300005743000058430000594300005A4300005B4300005C4300005D4300005E4300005F430000604300006143000062430000634300006443000065430000664300006743000068430000694300006A4300006B4300006C4300006D4300006E4300006F430000704300007143000072430000734300007443000075430000764300007743000078430000794300007A4300007B4300007C4300007D4300007E4300007F43000080430080804300008143008081430000824300808243000083430080834300008443008084430000854300808543000086430080864300008743008087430000884300808843000089430080894300008A4300808A4300008B4300808B4300008C4300808C4300008D4300808D4300008E4300808E4300008F4300808F43000090430080904300009143008091430000924300809243000093430080934300009443008094430000954300809543000096430080964300009743008097430000984300809843000099430080994300009A4300809A4300009B4300809B4300009C4300809C4300009D4300809D4300009E4300809E4300009F4300809F430000A0430080A0430000A1430080A1430000A2430080A2430000A3430080A3430000A4430080A4430000A5430080A5430000A6430080A6430000A7430080A7430000A8430080A8430000A9430080A9430000AA430080AA430000AB430080AB430000AC430080AC430000AD430080AD430000AE430080AE430000AF430080AF430000B0430080B0430000B1430080B1430000B2430080B2430000B3430080B3430000B4430080B4430000B5430080B5430000B6430080B6430000B7430080B7430000B8430080B8430000B9430080B9430000BA430080BA430000BB430080BB430000BC430080BC430000BD430080BD430000BE430080BE430000BF430080BF430000C0430080C0430000C1430080C1430000C2430080C2430000C3430080C3430000C4430080C4430000C5430080C5430000C6430080C6430000C7430080C7430000C8430080C8430000C9430080C9430000CA430080CA430000CB430080CB430000CC430080CC430000CD430080CD430000CE430080CE430000CF430080CF430000D0430080D0430000D1430080D1430000D2430080D2430000D3430080D3430000D4430080D4430000D5430080D5430000D6430080D6430000D7430080D7430000D8430080D8430000D9430080D9430000DA430080DA430000DB430080DB430000DC430080DC430000DD430080DD430000DE430080DE430000DF430080DF430000E0430080E0430000E1430080E1430000E2430080E2430000E3430080E3430000E4430080E4430000E5430080E5430000E6430080E6430000E7430080E7430000E8430080E8430000E9430080E9430000EA430080EA430000EB430080EB430000EC430080EC430000ED430080ED430000EE430080EE430000EF430080EF430000F0430080F0430000F1430080F1430000F2430080F2430000F3430080F3430000F4430080F4430000F5430080F5430000F6430080F6430000F7430080F7430000F8430080F8430000F9430080F9430000FA430080FA430000FB430080FB430000FC430080FC430000FD430080FD430000FE430080FE430000FF430080FF4300000044004000440080004400C0004400000144004001440080014400C0014400000244004002440080024400C0024400000344004003440080034400C0034400000444004004440080044400C0044400000544004005440080054400C0054400000644004006440080064400C0064400000744004007440080074400C0074400000844004008440080084400C0084400000944004009440080094400C0094400000A4400400A4400800A4400C00A4400000B4400400B4400800B4400C00B4400000C4400400C4400800C4400C00C4400000D4400400D4400800D4400C00D4400000E4400400E4400800E4400C00E4400000F4400400F4400800F4400C00F4400001044004010440080104400C0104400001144004011440080114400C0114400001244004012440080124400C0124400001344004013440080134400C0134400001444004014440080144400C0144400001544004015440080154400C0154400001644004016440080164400C0164400001744004017440080174400C0174400001844004018440080184400C0184400001944004019440080194400C0194400001A4400401A4400801A4400C01A4400001B4400401B4400801B4400C01B4400001C4400401C4400801C4400C01C4400001D4400401D4400801D4400C01D4400001E4400401E4400801E4400C01E4400001F4400401F4400801F4400C01F4400002044004020440080204400C0204400002144004021440080214400C0214400002244004022440080224400C0224400002344004023440080234400C0234400002444004024440080244400C0244400002544004025440080254400C0254400002644004026440080264400C0264400002744004027440080274400C0274400002844004028440080284400C0284400002944004029440080294400C0294400002A4400402A4400802A4400C02A4400002B4400402B4400802B4400C02B4400002C4400402C4400802C4400C02C4400002D4400402D4400802D4400C02D4400002E4400402E4400802E4400C02E4400002F4400402F4400802F4400C02F4400003044004030440080304400C0304400003144004031440080314400C0314400003244004032440080324400C0324400003344004033440080334400C0334400003444004034440080344400C0344400003544004035440080354400C0354400003644004036440080364400C0364400003744004037440080374400C0374400003844004038440080384400C0384400003944004039440080394400C0394400003A4400403A4400803A4400C03A4400003B4400403B4400803B4400C03B4400003C4400403C4400803C4400C03C4400003D4400403D4400803D4400C03D4400003E4400403E4400803E4400C03E4400003F4400403F4400803F4400C03F4400004044004040440080404400C0404400004144004041440080414400C0414400004244004042440080424400C0424400004344004043440080434400C0434400004444004044440080444400C0444400004544004045440080454400C0454400004644004046440080464400C0464400004744004047440080474400C0474400004844004048440080484400C0484400004944004049440080494400C0494400004A4400404A4400804A4400C04A4400004B4400404B4400804B4400C04B4400004C4400404C4400804C4400C04C4400004D4400404D4400804D4400C04D4400004E4400404E4400804E4400C04E4400004F4400404F4400804F4400C04F4400005044004050440080504400C0504400005144004051440080514400C0514400005244004052440080524400C0524400005344004053440080534400C0534400005444004054440080544400C0544400005544004055440080554400C0554400005644004056440080564400C0564400005744004057440080574400C0574400005844004058440080584400C0584400005944004059440080594400C0594400005A4400405A4400805A4400C05A4400005B4400405B4400805B4400C05B4400005C4400405C4400805C4400C05C4400005D4400405D4400805D4400C05D4400005E4400405E4400805E4400C05E4400005F4400405F4400805F4400C05F4400006044004060440080604400C0604400006144004061440080614400C0614400006244004062440080624400C0624400006344004063440080634400C0634400006444004064440080644400C0644400006544004065440080654400C0654400006644004066440080664400C0664400006744004067440080674400C0674400006844004068440080684400C0684400006944004069440080694400C0694400006A4400406A4400806A4400C06A4400006B4400406B4400806B4400C06B4400006C4400406C4400806C4400C06C4400006D4400406D4400806D4400C06D4400006E4400406E4400806E4400C06E4400006F4400406F4400806F4400C06F4400007044004070440080704400C0704400007144004071440080714400C0714400007244004072440080724400C0724400007344004073440080734400C0734400007444004074440080744400C0744400007544004075440080754400C0754400007644004076440080764400C0764400007744004077440080774400C0774400007844004078440080784400C0784400007944004079440080794400C0794400007A4400407A4400807A4400C07A4400007B4400407B4400807B4400C07B4400007C4400407C4400807C4400C07C4400007D4400407D4400807D4400C07D4400007E4400407E4400807E4400C07E4400007F4400407F4400807F4400C07F44000080440020804400408044006080440080804400A0804400C0804400E08044000081440020814400408144006081440080814400A0814400C0814400E08144000082440020824400408244006082440080824400A0824400C0824400E08244000083440020834400408344006083440080834400A0834400C0834400E08344000084440020844400408444006084440080844400A0844400C0844400E08444000085440020854400408544006085440080854400A0854400C0854400E08544000086440020864400408644006086440080864400A0864400C0864400E08644000087440020874400408744006087440080874400A0874400C0874400E08744000088440020884400408844006088440080884400A0884400C0884400E08844000089440020894400408944006089440080894400A0894400C0894400E0894400008A4400208A4400408A4400608A4400808A4400A08A4400C08A4400E08A4400008B4400208B4400408B4400608B4400808B4400A08B4400C08B4400E08B4400008C4400208C4400408C4400608C4400808C4400A08C4400C08C4400E08C4400008D4400208D4400408D4400608D4400808D4400A08D4400C08D4400E08D4400008E4400208E4400408E4400608E4400808E4400A08E4400C08E4400E08E4400008F4400208F4400408F4400608F4400808F4400A08F4400C08F4400E08F44000090440020904400409044006090440080904400A0904400C0904400E09044000091440020914400409144006091440080914400A0914400C0914400E09144000092440020924400409244006092440080924400A0924400C0924400E09244000093440020934400409344006093440080934400A0934400C0934400E09344000094440020944400409444006094440080944400A0944400C0944400E09444000095440020954400409544006095440080954400A0954400C0954400E09544000096440020964400409644006096440080964400A0964400C0964400E09644000097440020974400409744006097440080974400A0974400C0974400E09744000098440020984400409844006098440080984400A0984400C0984400E09844000099440020994400409944006099440080994400A0994400C0994400E0994400009A4400209A4400409A4400609A4400809A4400A09A4400C09A4400E09A4400009B4400209B4400409B4400609B4400809B4400A09B4400C09B4400E09B4400009C4400209C4400409C4400609C4400809C4400A09C4400C09C4400E09C4400009D4400209D4400409D4400609D4400809D4400A09D4400C09D4400E09D4400009E4400209E4400409E4400609E4400809E4400A09E4400C09E4400E09E4400009F4400209F4400409F4400609F4400809F4400A09F4400C09F4400E09F440000A0440020A0440040A0440060A0440080A04400A0A04400C0A04400E0A0440000A1440020A1440040A1440060A1440080A14400A0A14400C0A14400E0A1440000A2440020A2440040A2440060A2440080A24400A0A24400C0A24400E0A2440000A3440020A3440040A3440060A3440080A34400A0A34400C0A34400E0A3440000A4440020A4440040A4440060A4440080A44400A0A44400C0A44400E0A4440000A5440020A5440040A5440060A5440080A54400A0A54400C0A54400E0A5440000A6440020A6440040A6440060A6440080A64400A0A64400C0A64400E0A6440000A7440020A7440040A7440060A7440080A74400A0A74400C0A74400E0A7440000A8440020A8440040A8440060A8440080A84400A0A84400C0A84400E0A8440000A9440020A9440040A9440060A9440080A94400A0A94400C0A94400E0A9440000AA440020AA440040AA440060AA440080AA4400A0AA4400C0AA4400E0AA440000AB440020AB440040AB440060AB440080AB4400A0AB4400C0AB4400E0AB440000AC440020AC440040AC440060AC440080AC4400A0AC4400C0AC4400E0AC440000AD440020AD440040AD440060AD440080AD4400A0AD4400C0AD4400E0AD440000AE440020AE440040AE440060AE440080AE4400A0AE4400C0AE4400E0AE440000AF440020AF440040AF440060AF440080AF4400A0AF4400C0AF4400E0AF440000B0440020B0440040B0440060B0440080B04400A0B04400C0B04400E0B0440000B1440020B1440040B1440060B1440080B14400A0B14400C0B14400E0B1440000B2440020B2440040B2440060B2440080B24400A0B24400C0B24400E0B2440000B3440020B3440040B3440060B3440080B34400A0B34400C0B34400E0B3440000B4440020B4440040B4440060B4440080B44400A0B44400C0B44400E0B4440000B5440020B5440040B5440060B5440080B54400A0B54400C0B54400E0B5440000B6440020B6440040B6440060B6440080B64400A0B64400C0B64400E0B6440000B7440020B7440040B7440060B7440080B74400A0B74400C0B74400E0B7440000B8440020B8440040B8440060B8440080B84400A0B84400C0B84400E0B8440000B9440020B9440040B9440060B9440080B94400A0B94400C0B94400E0B9440000BA440020BA440040BA440060BA440080BA4400A0BA4400C0BA4400E0BA440000BB440020BB440040BB440060BB440080BB4400A0BB4400C0BB4400E0BB440000BC440020BC440040BC440060BC440080BC4400A0BC4400C0BC4400E0BC440000BD440020BD440040BD440060BD440080BD4400A0BD4400C0BD4400E0BD440000BE440020BE440040BE440060BE440080BE4400A0BE4400C0BE4400E0BE440000BF440020BF440040BF440060BF440080BF4400A0BF4400C0BF4400E0BF440000C0440020C0440040C0440060C0440080C04400A0C04400C0C04400E0C0440000C1440020C1440040C1440060C1440080C14400A0C14400C0C14400E0C1440000C2440020C2440040C2440060C2440080C24400A0C24400C0C24400E0C2440000C3440020C3440040C3440060C3440080C34400A0C34400C0C34400E0C3440000C4440020C4440040C4440060C4440080C44400A0C44400C0C44400E0C4440000C5440020C5440040C5440060C5440080C54400A0C54400C0C54400E0C5440000C6440020C6440040C6440060C6440080C64400A0C64400C0C64400E0C6440000C7440020C7440040C7440060C7440080C74400A0C74400C0C74400E0C7440000C8440020C8440040C8440060C8440080C84400A0C84400C0C84400E0C8440000C9440020C9440040C9440060C9440080C94400A0C94400C0C94400E0C9440000CA440020CA440040CA440060CA440080CA4400A0CA4400C0CA4400E0CA440000CB440020CB440040CB440060CB440080CB4400A0CB4400C0CB4400E0CB440000CC440020CC440040CC440060CC440080CC4400A0CC4400C0CC4400E0CC440000CD440020CD440040CD440060CD440080CD4400A0CD4400C0CD4400E0CD440000CE440020CE440040CE440060CE440080CE4400A0CE4400C0CE4400E0CE440000CF440020CF440040CF440060CF440080CF4400A0CF4400C0CF4400E0CF440000D0440020D0440040D0440060D0440080D04400A0D04400C0D04400E0D0440000D1440020D1440040D1440060D1440080D14400A0D14400C0D14400E0D1440000D2440020D2440040D2440060D2440080D24400A0D24400C0D24400E0D2440000D3440020D3440040D3440060D3440080D34400A0D34400C0D34400E0D3440000D4440020D4440040D4440060D4440080D44400A0D44400C0D44400E0D4440000D5440020D5440040D5440060D5440080D54400A0D54400C0D54400E0D5440000D6440020D6440040D6440060D6440080D64400A0D64400C0D64400E0D6440000D7440020D7440040D7440060D7440080D74400A0D74400C0D74400E0D7440000D8440020D8440040D8440060D8440080D84400A0D84400C0D84400E0D8440000D9440020D9440040D9440060D9440080D94400A0D94400C0D94400E0D9440000DA440020DA440040DA440060DA440080DA4400A0DA4400C0DA4400E0DA440000DB440020DB440040DB440060DB440080DB4400A0DB4400C0DB4400E0DB440000DC440020DC440040DC440060DC440080DC4400A0DC4400C0DC4400E0DC440000DD440020DD440040DD440060DD440080DD4400A0DD4400C0DD4400E0DD440000DE440020DE440040DE440060DE440080DE4400A0DE4400C0DE4400E0DE440000DF440020DF440040DF440060DF440080DF4400A0DF4400C0DF4400E0DF440000E0440020E0440040E0440060E0440080E04400A0E04400C0E04400E0E0440000E1440020E1440040E1440060E1440080E14400A0E14400C0E14400E0E1440000E2440020E2440040E2440060E2440080E24400A0E24400C0E24400E0E2440000E3440020E3440040E3440060E3440080E34400A0E34400C0E34400E0E3440000E4440020E4440040E4440060E4440080E44400A0E44400C0E44400E0E4440000E5440020E5440040E5440060E5440080E54400A0E54400C0E54400E0E5440000E6440020E6440040E6440060E6440080E64400A0E64400C0E64400E0E6440000E7440020E7440040E7440060E7440080E74400A0E74400C0E74400E0E7440000E8440020E8440040E8440060E8440080E84400A0E84400C0E84400E0E8440000E9440020E9440040E9440060E9440080E94400A0E94400C0E94400E0E9440000EA440020EA440040EA440060EA440080EA4400A0EA4400C0EA4400E0EA440000EB440020EB440040EB440060EB440080EB4400A0EB4400C0EB4400E0EB440000EC440020EC440040EC440060EC440080EC4400A0EC4400C0EC4400E0EC440000ED440020ED440040ED440060ED440080ED4400A0ED4400C0ED4400E0ED440000EE440020EE440040EE440060EE440080EE4400A0EE4400C0EE4400E0EE440000EF440020EF440040EF440060EF440080EF4400A0EF4400C0EF4400E0EF440000F0440020F0440040F0440060F0440080F04400A0F04400C0F04400E0F0440000F1440020F1440040F1440060F1440080F14400A0F14400C0F14400E0F1440000F2440020F2440040F2440060F2440080F24400A0F24400C0F24400E0F2440000F3440020F3440040F3440060F3440080F34400A0F34400C0F34400E0F3440000F4440020F4440040F4440060F4440080F44400A0F44400C0F44400E0F4440000F5440020F5440040F5440060F5440080F54400A0F54400C0F54400E0F5440000F6440020F6440040F6440060F6440080F64400A0F64400C0F64400E0F6440000F7440020F7440040F7440060F7440080F74400A0F74400C0F74400E0F7440000F8440020F8440040F8440060F8440080F84400A0F84400C0F84400E0F8440000F9440020F9440040F9440060F9440080F94400A0F94400C0F94400E0F9440000FA440020FA440040FA440060FA440080FA4400A0FA4400C0FA4400E0FA440000FB440020FB440040FB440060FB440080FB4400A0FB4400C0FB4400E0FB440000FC440020FC440040FC440060FC440080FC4400A0FC4400C0FC4400E0FC440000FD440020FD440040FD440060FD440080FD4400A0FD4400C0FD4400E0FD440000FE440020FE440040FE440060FE440080FE4400A0FE4400C0FE4400E0FE440000FF440020FF440040FF440060FF440080FF4400A0FF4400C0FF4400E0FF440000004500100045002000450030004500400045005000450060004500700045008000450090004500A0004500B0004500C0004500D0004500E0004500F000450000014500100145002001450030014500400145005001450060014500700145008001450090014500A0014500B0014500C0014500D0014500E0014500F001450000024500100245002002450030024500400245005002450060024500700245008002450090024500A0024500B0024500C0024500D0024500E0024500F002450000034500100345002003450030034500400345005003450060034500700345008003450090034500A0034500B0034500C0034500D0034500E0034500F003450000044500100445002004450030044500400445005004450060044500700445008004450090044500A0044500B0044500C0044500D0044500E0044500F004450000054500100545002005450030054500400545005005450060054500700545008005450090054500A0054500B0054500C0054500D0054500E0054500F005450000064500100645002006450030064500400645005006450060064500700645008006450090064500A0064500B0064500C0064500D0064500E0064500F006450000074500100745002007450030074500400745005007450060074500700745008007450090074500A0074500B0074500C0074500D0074500E0074500F007450000084500100845002008450030084500400845005008450060084500700845008008450090084500A0084500B0084500C0084500D0084500E0084500F008450000094500100945002009450030094500400945005009450060094500700945008009450090094500A0094500B0094500C0094500D0094500E0094500F0094500000A4500100A4500200A4500300A4500400A4500500A4500600A4500700A4500800A4500900A4500A00A4500B00A4500C00A4500D00A4500E00A4500F00A4500000B4500100B4500200B4500300B4500400B4500500B4500600B4500700B4500800B4500900B4500A00B4500B00B4500C00B4500D00B4500E00B4500F00B4500000C4500100C4500200C4500300C4500400C4500500C4500600C4500700C4500800C4500900C4500A00C4500B00C4500C00C4500D00C4500E00C4500F00C4500000D4500100D4500200D4500300D4500400D4500500D4500600D4500700D4500800D4500900D4500A00D4500B00D4500C00D4500D00D4500E00D4500F00D4500000E4500100E4500200E4500300E4500400E4500500E4500600E4500700E4500800E4500900E4500A00E4500B00E4500C00E4500D00E4500E00E4500F00E4500000F4500100F4500200F4500300F4500400F4500500F4500600F4500700F4500800F4500900F4500A00F4500B00F4500C00F4500D00F4500E00F4500F00F450000104500101045002010450030104500401045005010450060104500701045008010450090104500A0104500B0104500C0104500D0104500E0104500F010450000114500101145002011450030114500401145005011450060114500701145008011450090114500A0114500B0114500C0114500D0114500E0114500F011450000124500101245002012450030124500401245005012450060124500701245008012450090124500A0124500B0124500C0124500D0124500E0124500F012450000134500101345002013450030134500401345005013450060134500701345008013450090134500A0134500B0134500C0134500D0134500E0134500F013450000144500101445002014450030144500401445005014450060144500701445008014450090144500A0144500B0144500C0144500D0144500E0144500F014450000154500101545002015450030154500401545005015450060154500701545008015450090154500A0154500B0154500C0154500D0154500E0154500F015450000164500101645002016450030164500401645005016450060164500701645008016450090164500A0164500B0164500C0164500D0164500E0164500F016450000174500101745002017450030174500401745005017450060174500701745008017450090174500A0174500B0174500C0174500D0174500E0174500F017450000184500101845002018450030184500401845005018450060184500701845008018450090184500A0184500B0184500C0184500D0184500E0184500F018450000194500101945002019450030194500401945005019450060194500701945008019450090194500A0194500B0194500C0194500D0194500E0194500F0194500001A4500101A4500201A4500301A4500401A4500501A4500601A4500701A4500801A4500901A4500A01A4500B01A4500C01A4500D01A4500E01A4500F01A4500001B4500101B4500201B4500301B4500401B4500501B4500601B4500701B4500801B4500901B4500A01B4500B01B4500C01B4500D01B4500E01B4500F01B4500001C4500101C4500201C4500301C4500401C4500501C4500601C4500701C4500801C4500901C4500A01C4500B01C4500C01C4500D01C4500E01C4500F01C4500001D4500101D4500201D4500301D4500401D4500501D4500601D4500701D4500801D4500901D4500A01D4500B01D4500C01D4500D01D4500E01D4500F01D4500001E4500101E4500201E4500301E4500401E4500501E4500601E4500701E4500801E4500901E4500A01E4500B01E4500C01E4500D01E4500E01E4500F01E4500001F4500101F4500201F4500301F4500401F4500501F4500601F4500701F4500801F4500901F4500A01F4500B01F4500C01F4500D01F4500E01F4500F01F450000204500102045002020450030204500402045005020450060204500702045008020450090204500A0204500B0204500C0204500D0204500E0204500F020450000214500102145002021450030214500402145005021450060214500702145008021450090214500A0214500B0214500C0214500D0214500E0214500F021450000224500102245002022450030224500402245005022450060224500702245008022450090224500A0224500B0224500C0224500D0224500E0224500F022450000234500102345002023450030234500402345005023450060234500702345008023450090234500A0234500B0234500C0234500D0234500E0234500F023450000244500102445002024450030244500402445005024450060244500702445008024450090244500A0244500B0244500C0244500D0244500E0244500F024450000254500102545002025450030254500402545005025450060254500702545008025450090254500A0254500B0254500C0254500D0254500E0254500F025450000264500102645002026450030264500402645005026450060264500702645008026450090264500A0264500B0264500C0264500D0264500E0264500F026450000274500102745002027450030274500402745005027450060274500702745008027450090274500A0274500B0274500C0274500D0274500E0274500F027450000284500102845002028450030284500402845005028450060284500702845008028450090284500A0284500B0284500C0284500D0284500E0284500F028450000294500102945002029450030294500402945005029450060294500702945008029450090294500A0294500B0294500C0294500D0294500E0294500F0294500002A4500102A4500202A4500302A4500402A4500502A4500602A4500702A4500802A4500902A4500A02A4500B02A4500C02A4500D02A4500E02A4500F02A4500002B4500102B4500202B4500302B4500402B4500502B4500602B4500702B4500802B4500902B4500A02B4500B02B4500C02B4500D02B4500E02B4500F02B4500002C4500102C4500202C4500302C4500402C4500502C4500602C4500702C4500802C4500902C4500A02C4500B02C4500C02C4500D02C4500E02C4500F02C4500002D4500102D4500202D4500302D4500402D4500502D4500602D4500702D4500802D4500902D4500A02D4500B02D4500C02D4500D02D4500E02D4500F02D4500002E4500102E4500202E4500302E4500402E4500502E4500602E4500702E4500802E4500902E4500A02E4500B02E4500C02E4500D02E4500E02E4500F02E4500002F4500102F4500202F4500302F4500402F4500502F4500602F4500702F4500802F4500902F4500A02F4500B02F4500C02F4500D02F4500E02F4500F02F450000304500103045002030450030304500403045005030450060304500703045008030450090304500A0304500B0304500C0304500D0304500E0304500F030450000314500103145002031450030314500403145005031450060314500703145008031450090314500A0314500B0314500C0314500D0314500E0314500F031450000324500103245002032450030324500403245005032450060324500703245008032450090324500A0324500B0324500C0324500D0324500E0324500F032450000334500103345002033450030334500403345005033450060334500703345008033450090334500A0334500B0334500C0334500D0334500E0334500F033450000344500103445002034450030344500403445005034450060344500703445008034450090344500A0344500B0344500C0344500D0344500E0344500F034450000354500103545002035450030354500403545005035450060354500703545008035450090354500A0354500B0354500C0354500D0354500E0354500F035450000364500103645002036450030364500403645005036450060364500703645008036450090364500A0364500B0364500C0364500D0364500E0364500F036450000374500103745002037450030374500403745005037450060374500703745008037450090374500A0374500B0374500C0374500D0374500E0374500F037450000384500103845002038450030384500403845005038450060384500703845008038450090384500A0384500B0384500C0384500D0384500E0384500F038450000394500103945002039450030394500403945005039450060394500703945008039450090394500A0394500B0394500C0394500D0394500E0394500F0394500003A4500103A4500203A4500303A4500403A4500503A4500603A4500703A4500803A4500903A4500A03A4500B03A4500C03A4500D03A4500E03A4500F03A4500003B4500103B4500203B4500303B4500403B4500503B4500603B4500703B4500803B4500903B4500A03B4500B03B4500C03B4500D03B4500E03B4500F03B4500003C4500103C4500203C4500303C4500403C4500503C4500603C4500703C4500803C4500903C4500A03C4500B03C4500C03C4500D03C4500E03C4500F03C4500003D4500103D4500203D4500303D4500403D4500503D4500603D4500703D4500803D4500903D4500A03D4500B03D4500C03D4500D03D4500E03D4500F03D4500003E4500103E4500203E4500303E4500403E4500503E4500603E4500703E4500803E4500903E4500A03E4500B03E4500C03E4500D03E4500E03E4500F03E4500003F4500103F4500203F4500303F4500403F4500503F4500603F4500703F4500803F4500903F4500A03F4500B03F4500C03F4500D03F4500E03F4500F03F450000404500104045002040450030404500404045005040450060404500704045008040450090404500A0404500B0404500C0404500D0404500E0404500F040450000414500104145002041450030414500404145005041450060414500704145008041450090414500A0414500B0414500C0414500D0414500E0414500F041450000424500104245002042450030424500404245005042450060424500704245008042450090424500A0424500B0424500C0424500D0424500E0424500F042450000434500104345002043450030434500404345005043450060434500704345008043450090434500A0434500B0434500C0434500D0434500E0434500F043450000444500104445002044450030444500404445005044450060444500704445008044450090444500A0444500B0444500C0444500D0444500E0444500F044450000454500104545002045450030454500404545005045450060454500704545008045450090454500A0454500B0454500C0454500D0454500E0454500F045450000464500104645002046450030464500404645005046450060464500704645008046450090464500A0464500B0464500C0464500D0464500E0464500F046450000474500104745002047450030474500404745005047450060474500704745008047450090474500A0474500B0474500C0474500D0474500E0474500F047450000484500104845002048450030484500404845005048450060484500704845008048450090484500A0484500B0484500C0484500D0484500E0484500F048450000494500104945002049450030494500404945005049450060494500704945008049450090494500A0494500B0494500C0494500D0494500E0494500F0494500004A4500104A4500204A4500304A4500404A4500504A4500604A4500704A4500804A4500904A4500A04A4500B04A4500C04A4500D04A4500E04A4500F04A4500004B4500104B4500204B4500304B4500404B4500504B4500604B4500704B4500804B4500904B4500A04B4500B04B4500C04B4500D04B4500E04B4500F04B4500004C4500104C4500204C4500304C4500404C4500504C4500604C4500704C4500804C4500904C4500A04C4500B04C4500C04C4500D04C4500E04C4500F04C4500004D4500104D4500204D4500304D4500404D4500504D4500604D4500704D4500804D4500904D4500A04D4500B04D4500C04D4500D04D4500E04D4500F04D4500004E4500104E4500204E4500304E4500404E4500504E4500604E4500704E4500804E4500904E4500A04E4500B04E4500C04E4500D04E4500E04E4500F04E4500004F4500104F4500204F4500304F4500404F4500504F4500604F4500704F4500804F4500904F4500A04F4500B04F4500C04F4500D04F4500E04F4500F04F450000504500105045002050450030504500405045005050450060504500705045008050450090504500A0504500B0504500C0504500D0504500E0504500F050450000514500105145002051450030514500405145005051450060514500705145008051450090514500A0514500B0514500C0514500D0514500E0514500F051450000524500105245002052450030524500405245005052450060524500705245008052450090524500A0524500B0524500C0524500D0524500E0524500F052450000534500105345002053450030534500405345005053450060534500705345008053450090534500A0534500B0534500C0534500D0534500E0534500F053450000544500105445002054450030544500405445005054450060544500705445008054450090544500A0544500B0544500C0544500D0544500E0544500F054450000554500105545002055450030554500405545005055450060554500705545008055450090554500A0554500B0554500C0554500D0554500E0554500F055450000564500105645002056450030564500405645005056450060564500705645008056450090564500A0564500B0564500C0564500D0564500E0564500F056450000574500105745002057450030574500405745005057450060574500705745008057450090574500A0574500B0574500C0574500D0574500E0574500F057450000584500105845002058450030584500405845005058450060584500705845008058450090584500A0584500B0584500C0584500D0584500E0584500F058450000594500105945002059450030594500405945005059450060594500705945008059450090594500A0594500B0594500C0594500D0594500E0594500F0594500005A4500105A4500205A4500305A4500405A4500505A4500605A4500705A4500805A4500905A4500A05A4500B05A4500C05A4500D05A4500E05A4500F05A4500005B4500105B4500205B4500305B4500405B4500505B4500605B4500705B4500805B4500905B4500A05B4500B05B4500C05B4500D05B4500E05B4500F05B4500005C4500105C4500205C4500305C4500405C4500505C4500605C4500705C4500805C4500905C4500A05C4500B05C4500C05C4500D05C4500E05C4500F05C4500005D4500105D4500205D4500305D4500405D4500505D4500605D4500705D4500805D4500905D4500A05D4500B05D4500C05D4500D05D4500E05D4500F05D4500005E4500105E4500205E4500305E4500405E4500505E4500605E4500705E4500805E4500905E4500A05E4500B05E4500C05E4500D05E4500E05E4500F05E4500005F4500105F4500205F4500305F4500405F4500505F4500605F4500705F4500805F4500905F4500A05F4500B05F4500C05F4500D05F4500E05F4500F05F450000604500106045002060450030604500406045005060450060604500706045008060450090604500A0604500B0604500C0604500D0604500E0604500F060450000614500106145002061450030614500406145005061450060614500706145008061450090614500A0614500B0614500C0614500D0614500E0614500F061450000624500106245002062450030624500406245005062450060624500706245008062450090624500A0624500B0624500C0624500D0624500E0624500F062450000634500106345002063450030634500406345005063450060634500706345008063450090634500A0634500B0634500C0634500D0634500E0634500F063450000644500106445002064450030644500406445005064450060644500706445008064450090644500A0644500B0644500C0644500D0644500E0644500F064450000654500106545002065450030654500406545005065450060654500706545008065450090654500A0654500B0654500C0654500D0654500E0654500F065450000664500106645002066450030664500406645005066450060664500706645008066450090664500A0664500B0664500C0664500D0664500E0664500F066450000674500106745002067450030674500406745005067450060674500706745008067450090674500A0674500B0674500C0674500D0674500E0674500F067450000684500106845002068450030684500406845005068450060684500706845008068450090684500A0684500B0684500C0684500D0684500E0684500F068450000694500106945002069450030694500406945005069450060694500706945008069450090694500A0694500B0694500C0694500D0694500E0694500F0694500006A4500106A4500206A4500306A4500406A4500506A4500606A4500706A4500806A4500906A4500A06A4500B06A4500C06A4500D06A4500E06A4500F06A4500006B4500106B4500206B4500306B4500406B4500506B4500606B4500706B4500806B4500906B4500A06B4500B06B4500C06B4500D06B4500E06B4500F06B4500006C4500106C4500206C4500306C4500406C4500506C4500606C4500706C4500806C4500906C4500A06C4500B06C4500C06C4500D06C4500E06C4500F06C4500006D4500106D4500206D4500306D4500406D4500506D4500606D4500706D4500806D4500906D4500A06D4500B06D4500C06D4500D06D4500E06D4500F06D4500006E4500106E4500206E4500306E4500406E4500506E4500606E4500706E4500806E4500906E4500A06E4500B06E4500C06E4500D06E4500E06E4500F06E4500006F4500106F4500206F4500306F4500406F4500506F4500606F4500706F4500806F4500906F4500A06F4500B06F4500C06F4500D06F4500E06F4500F06F450000704500107045002070450030704500407045005070450060704500707045008070450090704500A0704500B0704500C0704500D0704500E0704500F070450000714500107145002071450030714500407145005071450060714500707145008071450090714500A0714500B0714500C0714500D0714500E0714500F071450000724500107245002072450030724500407245005072450060724500707245008072450090724500A0724500B0724500C0724500D0724500E0724500F072450000734500107345002073450030734500407345005073450060734500707345008073450090734500A0734500B0734500C0734500D0734500E0734500F073450000744500107445002074450030744500407445005074450060744500707445008074450090744500A0744500B0744500C0744500D0744500E0744500F074450000754500107545002075450030754500407545005075450060754500707545008075450090754500A0754500B0754500C0754500D0754500E0754500F075450000764500107645002076450030764500407645005076450060764500707645008076450090764500A0764500B0764500C0764500D0764500E0764500F076450000774500107745002077450030774500407745005077450060774500707745008077450090774500A0774500B0774500C0774500D0774500E0774500F077450000784500107845002078450030784500407845005078450060784500707845008078450090784500A0784500B0784500C0784500D0784500E0784500F078450000794500107945002079450030794500407945005079450060794500707945008079450090794500A0794500B0794500C0794500D0794500E0794500F0794500007A4500107A4500207A4500307A4500407A4500507A4500607A4500707A4500807A4500907A4500A07A4500B07A4500C07A4500D07A4500E07A4500F07A4500007B4500107B4500207B4500307B4500407B4500507B4500607B4500707B4500807B4500907B4500A07B4500B07B4500C07B4500D07B4500E07B4500F07B4500007C4500107C4500207C4500307C4500407C4500507C4500607C4500707C4500807C4500907C4500A07C4500B07C4500C07C4500D07C4500E07C4500F07C4500007D4500107D4500207D4500307D4500407D4500507D4500607D4500707D4500807D4500907D4500A07D4500B07D4500C07D4500D07D4500E07D4500F07D4500007E4500107E4500207E4500307E4500407E4500507E4500607E4500707E4500807E4500907E4500A07E4500B07E4500C07E4500D07E4500E07E4500F07E4500007F4500107F4500207F4500307F4500407F4500507F4500607F4500707F4500807F4500907F4500A07F4500B07F4500C07F4500D07F4500E07F4500F07F45000080450008804500108045001880450020804500288045003080450038804500408045004880450050804500588045006080450068804500708045007880450080804500888045009080450098804500A0804500A8804500B0804500B8804500C0804500C8804500D0804500D8804500E0804500E8804500F0804500F88045000081450008814500108145001881450020814500288145003081450038814500408145004881450050814500588145006081450068814500708145007881450080814500888145009081450098814500A0814500A8814500B0814500B8814500C0814500C8814500D0814500D8814500E0814500E8814500F0814500F88145000082450008824500108245001882450020824500288245003082450038824500408245004882450050824500588245006082450068824500708245007882450080824500888245009082450098824500A0824500A8824500B0824500B8824500C0824500C8824500D0824500D8824500E0824500E8824500F0824500F88245000083450008834500108345001883450020834500288345003083450038834500408345004883450050834500588345006083450068834500708345007883450080834500888345009083450098834500A0834500A8834500B0834500B8834500C0834500C8834500D0834500D8834500E0834500E8834500F0834500F88345000084450008844500108445001884450020844500288445003084450038844500408445004884450050844500588445006084450068844500708445007884450080844500888445009084450098844500A0844500A8844500B0844500B8844500C0844500C8844500D0844500D8844500E0844500E8844500F0844500F88445000085450008854500108545001885450020854500288545003085450038854500408545004885450050854500588545006085450068854500708545007885450080854500888545009085450098854500A0854500A8854500B0854500B8854500C0854500C8854500D0854500D8854500E0854500E8854500F0854500F88545000086450008864500108645001886450020864500288645003086450038864500408645004886450050864500588645006086450068864500708645007886450080864500888645009086450098864500A0864500A8864500B0864500B8864500C0864500C8864500D0864500D8864500E0864500E8864500F0864500F88645000087450008874500108745001887450020874500288745003087450038874500408745004887450050874500588745006087450068874500708745007887450080874500888745009087450098874500A0874500A8874500B0874500B8874500C0874500C8874500D0874500D8874500E0874500E8874500F0874500F88745000088450008884500108845001888450020884500288845003088450038884500408845004888450050884500588845006088450068884500708845007888450080884500888845009088450098884500A0884500A8884500B0884500B8884500C0884500C8884500D0884500D8884500E0884500E8884500F0884500F88845000089450008894500108945001889450020894500288945003089450038894500408945004889450050894500588945006089450068894500708945007889450080894500888945009089450098894500A0894500A8894500B0894500B8894500C0894500C8894500D0894500D8894500E0894500E8894500F0894500F8894500008A4500088A4500108A4500188A4500208A4500288A4500308A4500388A4500408A4500488A4500508A4500588A4500608A4500688A4500708A4500788A4500808A4500888A4500908A4500988A4500A08A4500A88A4500B08A4500B88A4500C08A4500C88A4500D08A4500D88A4500E08A4500E88A4500F08A4500F88A4500008B4500088B4500108B4500188B4500208B4500288B4500308B4500388B4500408B4500488B4500508B4500588B4500608B4500688B4500708B4500788B4500808B4500888B4500908B4500988B4500A08B4500A88B4500B08B4500B88B4500C08B4500C88B4500D08B4500D88B4500E08B4500E88B4500F08B4500F88B4500008C4500088C4500108C4500188C4500208C4500288C4500308C4500388C4500408C4500488C4500508C4500588C4500608C4500688C4500708C4500788C4500808C4500888C4500908C4500988C4500A08C4500A88C4500B08C4500B88C4500C08C4500C88C4500D08C4500D88C4500E08C4500E88C4500F08C4500F88C4500008D4500088D4500108D4500188D4500208D4500288D4500308D4500388D4500408D4500488D4500508D4500588D4500608D4500688D4500708D4500788D4500808D4500888D4500908D4500988D4500A08D4500A88D4500B08D4500B88D4500C08D4500C88D4500D08D4500D88D4500E08D4500E88D4500F08D4500F88D4500008E4500088E4500108E4500188E4500208E4500288E4500308E4500388E4500408E4500488E4500508E4500588E4500608E4500688E4500708E4500788E4500808E4500888E4500908E4500988E4500A08E4500A88E4500B08E4500B88E4500C08E4500C88E4500D08E4500D88E4500E08E4500E88E4500F08E4500F88E4500008F4500088F4500108F4500188F4500208F4500288F4500308F4500388F4500408F4500488F4500508F4500588F4500608F4500688F4500708F4500788F4500808F4500888F4500908F4500988F4500A08F4500A88F4500B08F4500B88F4500C08F4500C88F4500D08F4500D88F4500E08F4500E88F4500F08F4500F88F45000090450008904500109045001890450020904500289045003090450038904500409045004890450050904500589045006090450068904500709045007890450080904500889045009090450098904500A0904500A8904500B0904500B8904500C0904500C8904500D0904500D8904500E0904500E8904500F0904500F89045000091450008914500109145001891450020914500289145003091450038914500409145004891450050914500589145006091450068914500709145007891450080914500889145009091450098914500A0914500A8914500B0914500B8914500C0914500C8914500D0914500D8914500E0914500E8914500F0914500F89145000092450008924500109245001892450020924500289245003092450038924500409245004892450050924500589245006092450068924500709245007892450080924500889245009092450098924500A0924500A8924500B0924500B8924500C0924500C8924500D0924500D8924500E0924500E8924500F0924500F89245000093450008934500109345001893450020934500289345003093450038934500409345004893450050934500589345006093450068934500709345007893450080934500889345009093450098934500A0934500A8934500B0934500B8934500C0934500C8934500D0934500D8934500E0934500E8934500F0934500F89345000094450008944500109445001894450020944500289445003094450038944500409445004894450050944500589445006094450068944500709445007894450080944500889445009094450098944500A0944500A8944500B0944500B8944500C0944500C8944500D0944500D8944500E0944500E8944500F0944500F89445000095450008954500109545001895450020954500289545003095450038954500409545004895450050954500589545006095450068954500709545007895450080954500889545009095450098954500A0954500A8954500B0954500B8954500C0954500C8954500D0954500D8954500E0954500E8954500F0954500F89545000096450008964500109645001896450020964500289645003096450038964500409645004896450050964500589645006096450068964500709645007896450080964500889645009096450098964500A0964500A8964500B0964500B8964500C0964500C8964500D0964500D8964500E0964500E8964500F0964500F89645000097450008974500109745001897450020974500289745003097450038974500409745004897450050974500589745006097450068974500709745007897450080974500889745009097450098974500A0974500A8974500B0974500B8974500C0974500C8974500D0974500D8974500E0974500E8974500F0974500F89745000098450008984500109845001898450020984500289845003098450038984500409845004898450050984500589845006098450068984500709845007898450080984500889845009098450098984500A0984500A8984500B0984500B8984500C0984500C8984500D0984500D8984500E0984500E8984500F0984500F89845000099450008994500109945001899450020994500289945003099450038994500409945004899450050994500589945006099450068994500709945007899450080994500889945009099450098994500A0994500A8994500B0994500B8994500C0994500C8994500D0994500D8994500E0994500E8994500F0994500F8994500009A4500089A4500109A4500189A4500209A4500289A4500309A4500389A4500409A4500489A4500509A4500589A4500609A4500689A4500709A4500789A4500809A4500889A4500909A4500989A4500A09A4500A89A4500B09A4500B89A4500C09A4500C89A4500D09A4500D89A4500E09A4500E89A4500F09A4500F89A4500009B4500089B4500109B4500189B4500209B4500289B4500309B4500389B4500409B4500489B4500509B4500589B4500609B4500689B4500709B4500789B4500809B4500889B4500909B4500989B4500A09B4500A89B4500B09B4500B89B4500C09B4500C89B4500D09B4500D89B4500E09B4500E89B4500F09B4500F89B4500009C4500089C4500109C4500189C4500209C4500289C4500309C4500389C4500409C4500489C4500509C4500589C4500609C4500689C4500709C4500789C4500809C4500889C4500909C4500989C4500A09C4500A89C4500B09C4500B89C4500C09C4500C89C4500D09C4500D89C4500E09C4500E89C4500F09C4500F89C4500009D4500089D4500109D4500189D4500209D4500289D4500309D4500389D4500409D4500489D4500509D4500589D4500609D4500689D4500709D4500789D4500809D4500889D4500909D4500989D4500A09D4500A89D4500B09D4500B89D4500C09D4500C89D4500D09D4500D89D4500E09D4500E89D4500F09D4500F89D4500009E4500089E4500109E4500189E4500209E4500289E4500309E4500389E4500409E4500489E4500509E4500589E4500609E4500689E4500709E4500789E4500809E4500889E4500909E4500989E4500A09E4500A89E4500B09E4500B89E4500C09E4500C89E4500D09E4500D89E4500E09E4500E89E4500F09E4500F89E4500009F4500089F4500109F4500189F4500209F4500289F4500309F4500389F4500409F4500489F4500509F4500589F4500609F4500689F4500709F4500789F4500809F4500889F4500909F4500989F4500A09F4500A89F4500B09F4500B89F4500C09F4500C89F4500D09F4500D89F4500E09F4500E89F4500F09F4500F89F450000A0450008A0450010A0450018A0450020A0450028A0450030A0450038A0450040A0450048A0450050A0450058A0450060A0450068A0450070A0450078A0450080A0450088A0450090A0450098A04500A0A04500A8A04500B0A04500B8A04500C0A04500C8A04500D0A04500D8A04500E0A04500E8A04500F0A04500F8A0450000A1450008A1450010A1450018A1450020A1450028A1450030A1450038A1450040A1450048A1450050A1450058A1450060A1450068A1450070A1450078A1450080A1450088A1450090A1450098A14500A0A14500A8A14500B0A14500B8A14500C0A14500C8A14500D0A14500D8A14500E0A14500E8A14500F0A14500F8A1450000A2450008A2450010A2450018A2450020A2450028A2450030A2450038A2450040A2450048A2450050A2450058A2450060A2450068A2450070A2450078A2450080A2450088A2450090A2450098A24500A0A24500A8A24500B0A24500B8A24500C0A24500C8A24500D0A24500D8A24500E0A24500E8A24500F0A24500F8A2450000A3450008A3450010A3450018A3450020A3450028A3450030A3450038A3450040A3450048A3450050A3450058A3450060A3450068A3450070A3450078A3450080A3450088A3450090A3450098A34500A0A34500A8A34500B0A34500B8A34500C0A34500C8A34500D0A34500D8A34500E0A34500E8A34500F0A34500F8A3450000A4450008A4450010A4450018A4450020A4450028A4450030A4450038A4450040A4450048A4450050A4450058A4450060A4450068A4450070A4450078A4450080A4450088A4450090A4450098A44500A0A44500A8A44500B0A44500B8A44500C0A44500C8A44500D0A44500D8A44500E0A44500E8A44500F0A44500F8A4450000A5450008A5450010A5450018A5450020A5450028A5450030A5450038A5450040A5450048A5450050A5450058A5450060A5450068A5450070A5450078A5450080A5450088A5450090A5450098A54500A0A54500A8A54500B0A54500B8A54500C0A54500C8A54500D0A54500D8A54500E0A54500E8A54500F0A54500F8A5450000A6450008A6450010A6450018A6450020A6450028A6450030A6450038A6450040A6450048A6450050A6450058A6450060A6450068A6450070A6450078A6450080A6450088A6450090A6450098A64500A0A64500A8A64500B0A64500B8A64500C0A64500C8A64500D0A64500D8A64500E0A64500E8A64500F0A64500F8A6450000A7450008A7450010A7450018A7450020A7450028A7450030A7450038A7450040A7450048A7450050A7450058A7450060A7450068A7450070A7450078A7450080A7450088A7450090A7450098A74500A0A74500A8A74500B0A74500B8A74500C0A74500C8A74500D0A74500D8A74500E0A74500E8A74500F0A74500F8A7450000A8450008A8450010A8450018A8450020A8450028A8450030A8450038A8450040A8450048A8450050A8450058A8450060A8450068A8450070A8450078A8450080A8450088A8450090A8450098A84500A0A84500A8A84500B0A84500B8A84500C0A84500C8A84500D0A84500D8A84500E0A84500E8A84500F0A84500F8A8450000A9450008A9450010A9450018A9450020A9450028A9450030A9450038A9450040A9450048A9450050A9450058A9450060A9450068A9450070A9450078A9450080A9450088A9450090A9450098A94500A0A94500A8A94500B0A94500B8A94500C0A94500C8A94500D0A94500D8A94500E0A94500E8A94500F0A94500F8A9450000AA450008AA450010AA450018AA450020AA450028AA450030AA450038AA450040AA450048AA450050AA450058AA450060AA450068AA450070AA450078AA450080AA450088AA450090AA450098AA4500A0AA4500A8AA4500B0AA4500B8AA4500C0AA4500C8AA4500D0AA4500D8AA4500E0AA4500E8AA4500F0AA4500F8AA450000AB450008AB450010AB450018AB450020AB450028AB450030AB450038AB450040AB450048AB450050AB450058AB450060AB450068AB450070AB450078AB450080AB450088AB450090AB450098AB4500A0AB4500A8AB4500B0AB4500B8AB4500C0AB4500C8AB4500D0AB4500D8AB4500E0AB4500E8AB4500F0AB4500F8AB450000AC450008AC450010AC450018AC450020AC450028AC450030AC450038AC450040AC450048AC450050AC450058AC450060AC450068AC450070AC450078AC450080AC450088AC450090AC450098AC4500A0AC4500A8AC4500B0AC4500B8AC4500C0AC4500C8AC4500D0AC4500D8AC4500E0AC4500E8AC4500F0AC4500F8AC450000AD450008AD450010AD450018AD450020AD450028AD450030AD450038AD450040AD450048AD450050AD450058AD450060AD450068AD450070AD450078AD450080AD450088AD450090AD450098AD4500A0AD4500A8AD4500B0AD4500B8AD4500C0AD4500C8AD4500D0AD4500D8AD4500E0AD4500E8AD4500F0AD4500F8AD450000AE450008AE450010AE450018AE450020AE450028AE450030AE450038AE450040AE450048AE450050AE450058AE450060AE450068AE450070AE450078AE450080AE450088AE450090AE450098AE4500A0AE4500A8AE4500B0AE4500B8AE4500C0AE4500C8AE4500D0AE4500D8AE4500E0AE4500E8AE4500F0AE4500F8AE450000AF450008AF450010AF450018AF450020AF450028AF450030AF450038AF450040AF450048AF450050AF450058AF450060AF450068AF450070AF450078AF450080AF450088AF450090AF450098AF4500A0AF4500A8AF4500B0AF4500B8AF4500C0AF4500C8AF4500D0AF4500D8AF4500E0AF4500E8AF4500F0AF4500F8AF450000B0450008B0450010B0450018B0450020B0450028B0450030B0450038B0450040B0450048B0450050B0450058B0450060B0450068B0450070B0450078B0450080B0450088B0450090B0450098B04500A0B04500A8B04500B0B04500B8B04500C0B04500C8B04500D0B04500D8B04500E0B04500E8B04500F0B04500F8B0450000B1450008B1450010B1450018B1450020B1450028B1450030B1450038B1450040B1450048B1450050B1450058B1450060B1450068B1450070B1450078B1450080B1450088B1450090B1450098B14500A0B14500A8B14500B0B14500B8B14500C0B14500C8B14500D0B14500D8B14500E0B14500E8B14500F0B14500F8B1450000B2450008B2450010B2450018B2450020B2450028B2450030B2450038B2450040B2450048B2450050B2450058B2450060B2450068B2450070B2450078B2450080B2450088B2450090B2450098B24500A0B24500A8B24500B0B24500B8B24500C0B24500C8B24500D0B24500D8B24500E0B24500E8B24500F0B24500F8B2450000B3450008B3450010B3450018B3450020B3450028B3450030B3450038B3450040B3450048B3450050B3450058B3450060B3450068B3450070B3450078B3450080B3450088B3450090B3450098B34500A0B34500A8B34500B0B34500B8B34500C0B34500C8B34500D0B34500D8B34500E0B34500E8B34500F0B34500F8B3450000B4450008B4450010B4450018B4450020B4450028B4450030B4450038B4450040B4450048B4450050B4450058B4450060B4450068B4450070B4450078B4450080B4450088B4450090B4450098B44500A0B44500A8B44500B0B44500B8B44500C0B44500C8B44500D0B44500D8B44500E0B44500E8B44500F0B44500F8B4450000B5450008B5450010B5450018B5450020B5450028B5450030B5450038B5450040B5450048B5450050B5450058B5450060B5450068B5450070B5450078B5450080B5450088B5450090B5450098B54500A0B54500A8B54500B0B54500B8B54500C0B54500C8B54500D0B54500D8B54500E0B54500E8B54500F0B54500F8B5450000B6450008B6450010B6450018B6450020B6450028B6450030B6450038B6450040B6450048B6450050B6450058B6450060B6450068B6450070B6450078B6450080B6450088B6450090B6450098B64500A0B64500A8B64500B0B64500B8B64500C0B64500C8B64500D0B64500D8B64500E0B64500E8B64500F0B64500F8B6450000B7450008B7450010B7450018B7450020B7450028B7450030B7450038B7450040B7450048B7450050B7450058B7450060B7450068B7450070B7450078B7450080B7450088B7450090B7450098B74500A0B74500A8B74500B0B74500B8B74500C0B74500C8B74500D0B74500D8B74500E0B74500E8B74500F0B74500F8B7450000B8450008B8450010B8450018B8450020B8450028B8450030B8450038B8450040B8450048B8450050B8450058B8450060B8450068B8450070B8450078B8450080B8450088B8450090B8450098B84500A0B84500A8B84500B0B84500B8B84500C0B84500C8B84500D0B84500D8B84500E0B84500E8B84500F0B84500F8B8450000B9450008B9450010B9450018B9450020B9450028B9450030B9450038B9450040B9450048B9450050B9450058B9450060B9450068B9450070B9450078B9450080B9450088B9450090B9450098B94500A0B94500A8B94500B0B94500B8B94500C0B94500C8B94500D0B94500D8B94500E0B94500E8B94500F0B94500F8B9450000BA450008BA450010BA450018BA450020BA450028BA450030BA450038BA450040BA450048BA450050BA450058BA450060BA450068BA450070BA450078BA450080BA450088BA450090BA450098BA4500A0BA4500A8BA4500B0BA4500B8BA4500C0BA4500C8BA4500D0BA4500D8BA4500E0BA4500E8BA4500F0BA4500F8BA450000BB450008BB450010BB450018BB450020BB450028BB450030BB450038BB450040BB450048BB450050BB450058BB450060BB450068BB450070BB450078BB450080BB450088BB450090BB450098BB4500A0BB4500A8BB4500B0BB4500B8BB4500C0BB4500C8BB4500D0BB4500D8BB4500E0BB4500E8BB4500F0BB4500F8BB450000BC450008BC450010BC450018BC450020BC450028BC450030BC450038BC450040BC450048BC450050BC450058BC450060BC450068BC450070BC450078BC450080BC450088BC450090BC450098BC4500A0BC4500A8BC4500B0BC4500B8BC4500C0BC4500C8BC4500D0BC4500D8BC4500E0BC4500E8BC4500F0BC4500F8BC450000BD450008BD450010BD450018BD450020BD450028BD450030BD450038BD450040BD450048BD450050BD450058BD450060BD450068BD450070BD450078BD450080BD450088BD450090BD450098BD4500A0BD4500A8BD4500B0BD4500B8BD4500C0BD4500C8BD4500D0BD4500D8BD4500E0BD4500E8BD4500F0BD4500F8BD450000BE450008BE450010BE450018BE450020BE450028BE450030BE450038BE450040BE450048BE450050BE450058BE450060BE450068BE450070BE450078BE450080BE450088BE450090BE450098BE4500A0BE4500A8BE4500B0BE4500B8BE4500C0BE4500C8BE4500D0BE4500D8BE4500E0BE4500E8BE4500F0BE4500F8BE450000BF450008BF450010BF450018BF450020BF450028BF450030BF450038BF450040BF450048BF450050BF450058BF450060BF450068BF450070BF450078BF450080BF450088BF450090BF450098BF4500A0BF4500A8BF4500B0BF4500B8BF4500C0BF4500C8BF4500D0BF4500D8BF4500E0BF4500E8BF4500F0BF4500F8BF450000C0450008C0450010C0450018C0450020C0450028C0450030C0450038C0450040C0450048C0450050C0450058C0450060C0450068C0450070C0450078C0450080C0450088C0450090C0450098C04500A0C04500A8C04500B0C04500B8C04500C0C04500C8C04500D0C04500D8C04500E0C04500E8C04500F0C04500F8C0450000C1450008C1450010C1450018C1450020C1450028C1450030C1450038C1450040C1450048C1450050C1450058C1450060C1450068C1450070C1450078C1450080C1450088C1450090C1450098C14500A0C14500A8C14500B0C14500B8C14500C0C14500C8C14500D0C14500D8C14500E0C14500E8C14500F0C14500F8C1450000C2450008C2450010C2450018C2450020C2450028C2450030C2450038C2450040C2450048C2450050C2450058C2450060C2450068C2450070C2450078C2450080C2450088C2450090C2450098C24500A0C24500A8C24500B0C24500B8C24500C0C24500C8C24500D0C24500D8C24500E0C24500E8C24500F0C24500F8C2450000C3450008C3450010C3450018C3450020C3450028C3450030C3450038C3450040C3450048C3450050C3450058C3450060C3450068C3450070C3450078C3450080C3450088C3450090C3450098C34500A0C34500A8C34500B0C34500B8C34500C0C34500C8C34500D0C34500D8C34500E0C34500E8C34500F0C34500F8C3450000C4450008C4450010C4450018C4450020C4450028C4450030C4450038C4450040C4450048C4450050C4450058C4450060C4450068C4450070C4450078C4450080C4450088C4450090C4450098C44500A0C44500A8C44500B0C44500B8C44500C0C44500C8C44500D0C44500D8C44500E0C44500E8C44500F0C44500F8C4450000C5450008C5450010C5450018C5450020C5450028C5450030C5450038C5450040C5450048C5450050C5450058C5450060C5450068C5450070C5450078C5450080C5450088C5450090C5450098C54500A0C54500A8C54500B0C54500B8C54500C0C54500C8C54500D0C54500D8C54500E0C54500E8C54500F0C54500F8C5450000C6450008C6450010C6450018C6450020C6450028C6450030C6450038C6450040C6450048C6450050C6450058C6450060C6450068C6450070C6450078C6450080C6450088C6450090C6450098C64500A0C64500A8C64500B0C64500B8C64500C0C64500C8C64500D0C64500D8C64500E0C64500E8C64500F0C64500F8C6450000C7450008C7450010C7450018C7450020C7450028C7450030C7450038C7450040C7450048C7450050C7450058C7450060C7450068C7450070C7450078C7450080C7450088C7450090C7450098C74500A0C74500A8C74500B0C74500B8C74500C0C74500C8C74500D0C74500D8C74500E0C74500E8C74500F0C74500F8C7450000C8450008C8450010C8450018C8450020C8450028C8450030C8450038C8450040C8450048C8450050C8450058C8450060C8450068C8450070C8450078C8450080C8450088C8450090C8450098C84500A0C84500A8C84500B0C84500B8C84500C0C84500C8C84500D0C84500D8C84500E0C84500E8C84500F0C84500F8C8450000C9450008C9450010C9450018C9450020C9450028C9450030C9450038C9450040C9450048C9450050C9450058C9450060C9450068C9450070C9450078C9450080C9450088C9450090C9450098C94500A0C94500A8C94500B0C94500B8C94500C0C94500C8C94500D0C94500D8C94500E0C94500E8C94500F0C94500F8C9450000CA450008CA450010CA450018CA450020CA450028CA450030CA450038CA450040CA450048CA450050CA450058CA450060CA450068CA450070CA450078CA450080CA450088CA450090CA450098CA4500A0CA4500A8CA4500B0CA4500B8CA4500C0CA4500C8CA4500D0CA4500D8CA4500E0CA4500E8CA4500F0CA4500F8CA450000CB450008CB450010CB450018CB450020CB450028CB450030CB450038CB450040CB450048CB450050CB450058CB450060CB450068CB450070CB450078CB450080CB450088CB450090CB450098CB4500A0CB4500A8CB4500B0CB4500B8CB4500C0CB4500C8CB4500D0CB4500D8CB4500E0CB4500E8CB4500F0CB4500F8CB450000CC450008CC450010CC450018CC450020CC450028CC450030CC450038CC450040CC450048CC450050CC450058CC450060CC450068CC450070CC450078CC450080CC450088CC450090CC450098CC4500A0CC4500A8CC4500B0CC4500B8CC4500C0CC4500C8CC4500D0CC4500D8CC4500E0CC4500E8CC4500F0CC4500F8CC450000CD450008CD450010CD450018CD450020CD450028CD450030CD450038CD450040CD450048CD450050CD450058CD450060CD450068CD450070CD450078CD450080CD450088CD450090CD450098CD4500A0CD4500A8CD4500B0CD4500B8CD4500C0CD4500C8CD4500D0CD4500D8CD4500E0CD4500E8CD4500F0CD4500F8CD450000CE450008CE450010CE450018CE450020CE450028CE450030CE450038CE450040CE450048CE450050CE450058CE450060CE450068CE450070CE450078CE450080CE450088CE450090CE450098CE4500A0CE4500A8CE4500B0CE4500B8CE4500C0CE4500C8CE4500D0CE4500D8CE4500E0CE4500E8CE4500F0CE4500F8CE450000CF450008CF450010CF450018CF450020CF450028CF450030CF450038CF450040CF450048CF450050CF450058CF450060CF450068CF450070CF450078CF450080CF450088CF450090CF450098CF4500A0CF4500A8CF4500B0CF4500B8CF4500C0CF4500C8CF4500D0CF4500D8CF4500E0CF4500E8CF4500F0CF4500F8CF450000D0450008D0450010D0450018D0450020D0450028D0450030D0450038D0450040D0450048D0450050D0450058D0450060D0450068D0450070D0450078D0450080D0450088D0450090D0450098D04500A0D04500A8D04500B0D04500B8D04500C0D04500C8D04500D0D04500D8D04500E0D04500E8D04500F0D04500F8D0450000D1450008D1450010D1450018D1450020D1450028D1450030D1450038D1450040D1450048D1450050D1450058D1450060D1450068D1450070D1450078D1450080D1450088D1450090D1450098D14500A0D14500A8D14500B0D14500B8D14500C0D14500C8D14500D0D14500D8D14500E0D14500E8D14500F0D14500F8D1450000D2450008D2450010D2450018D2450020D2450028D2450030D2450038D2450040D2450048D2450050D2450058D2450060D2450068D2450070D2450078D2450080D2450088D2450090D2450098D24500A0D24500A8D24500B0D24500B8D24500C0D24500C8D24500D0D24500D8D24500E0D24500E8D24500F0D24500F8D2450000D3450008D3450010D3450018D3450020D3450028D3450030D3450038D3450040D3450048D3450050D3450058D3450060D3450068D3450070D3450078D3450080D3450088D3450090D3450098D34500A0D34500A8D34500B0D34500B8D34500C0D34500C8D34500D0D34500D8D34500E0D34500E8D34500F0D34500F8D3450000D4450008D4450010D4450018D4450020D4450028D4450030D4450038D4450040D4450048D4450050D4450058D4450060D4450068D4450070D4450078D4450080D4450088D4450090D4450098D44500A0D44500A8D44500B0D44500B8D44500C0D44500C8D44500D0D44500D8D44500E0D44500E8D44500F0D44500F8D4450000D5450008D5450010D5450018D5450020D5450028D5450030D5450038D5450040D5450048D5450050D5450058D5450060D5450068D5450070D5450078D5450080D5450088D5450090D5450098D54500A0D54500A8D54500B0D54500B8D54500C0D54500C8D54500D0D54500D8D54500E0D54500E8D54500F0D54500F8D5450000D6450008D6450010D6450018D6450020D6450028D6450030D6450038D6450040D6450048D6450050D6450058D6450060D6450068D6450070D6450078D6450080D6450088D6450090D6450098D64500A0D64500A8D64500B0D64500B8D64500C0D64500C8D64500D0D64500D8D64500E0D64500E8D64500F0D64500F8D6450000D7450008D7450010D7450018D7450020D7450028D7450030D7450038D7450040D7450048D7450050D7450058D7450060D7450068D7450070D7450078D7450080D7450088D7450090D7450098D74500A0D74500A8D74500B0D74500B8D74500C0D74500C8D74500D0D74500D8D74500E0D74500E8D74500F0D74500F8D7450000D8450008D8450010D8450018D8450020D8450028D8450030D8450038D8450040D8450048D8450050D8450058D8450060D8450068D8450070D8450078D8450080D8450088D8450090D8450098D84500A0D84500A8D84500B0D84500B8D84500C0D84500C8D84500D0D84500D8D84500E0D84500E8D84500F0D84500F8D8450000D9450008D9450010D9450018D9450020D9450028D9450030D9450038D9450040D9450048D9450050D9450058D9450060D9450068D9450070D9450078D9450080D9450088D9450090D9450098D94500A0D94500A8D94500B0D94500B8D94500C0D94500C8D94500D0D94500D8D94500E0D94500E8D94500F0D94500F8D9450000DA450008DA450010DA450018DA450020DA450028DA450030DA450038DA450040DA450048DA450050DA450058DA450060DA450068DA450070DA450078DA450080DA450088DA450090DA450098DA4500A0DA4500A8DA4500B0DA4500B8DA4500C0DA4500C8DA4500D0DA4500D8DA4500E0DA4500E8DA4500F0DA4500F8DA450000DB450008DB450010DB450018DB450020DB450028DB450030DB450038DB450040DB450048DB450050DB450058DB450060DB450068DB450070DB450078DB450080DB450088DB450090DB450098DB4500A0DB4500A8DB4500B0DB4500B8DB4500C0DB4500C8DB4500D0DB4500D8DB4500E0DB4500E8DB4500F0DB4500F8DB450000DC450008DC450010DC450018DC450020DC450028DC450030DC450038DC450040DC450048DC450050DC450058DC450060DC450068DC450070DC450078DC450080DC450088DC450090DC450098DC4500A0DC4500A8DC4500B0DC4500B8DC4500C0DC4500C8DC4500D0DC4500D8DC4500E0DC4500E8DC4500F0DC4500F8DC450000DD450008DD450010DD450018DD450020DD450028DD450030DD450038DD450040DD450048DD450050DD450058DD450060DD450068DD450070DD450078DD450080DD450088DD450090DD450098DD4500A0DD4500A8DD4500B0DD4500B8DD4500C0DD4500C8DD4500D0DD4500D8DD4500E0DD4500E8DD4500F0DD4500F8DD450000DE450008DE450010DE450018DE450020DE450028DE450030DE450038DE450040DE450048DE450050DE450058DE450060DE450068DE450070DE450078DE450080DE450088DE450090DE450098DE4500A0DE4500A8DE4500B0DE4500B8DE4500C0DE4500C8DE4500D0DE4500D8DE4500E0DE4500E8DE4500F0DE4500F8DE450000DF450008DF450010DF450018DF450020DF450028DF450030DF450038DF450040DF450048DF450050DF450058DF450060DF450068DF450070DF450078DF450080DF450088DF450090DF450098DF4500A0DF4500A8DF4500B0DF4500B8DF4500C0DF4500C8DF4500D0DF4500D8DF4500E0DF4500E8DF4500F0DF4500F8DF450000E0450008E0450010E0450018E0450020E0450028E0450030E0450038E0450040E0450048E0450050E0450058E0450060E0450068E0450070E0450078E0450080E0450088E0450090E0450098E04500A0E04500A8E04500B0E04500B8E04500C0E04500C8E04500D0E04500D8E04500E0E04500E8E04500F0E04500F8E0450000E1450008E1450010E1450018E1450020E1450028E1450030E1450038E1450040E1450048E1450050E1450058E1450060E1450068E1450070E1450078E1450080E1450088E1450090E1450098E14500A0E14500A8E14500B0E14500B8E14500C0E14500C8E14500D0E14500D8E14500E0E14500E8E14500F0E14500F8E1450000E2450008E2450010E2450018E2450020E2450028E2450030E2450038E2450040E2450048E2450050E2450058E2450060E2450068E2450070E2450078E2450080E2450088E2450090E2450098E24500A0E24500A8E24500B0E24500B8E24500C0E24500C8E24500D0E24500D8E24500E0E24500E8E24500F0E24500F8E2450000E3450008E3450010E3450018E3450020E3450028E3450030E3450038E3450040E3450048E3450050E3450058E3450060E3450068E3450070E3450078E3450080E3450088E3450090E3450098E34500A0E34500A8E34500B0E34500B8E34500C0E34500C8E34500D0E34500D8E34500E0E34500E8E34500F0E34500F8E3450000E4450008E4450010E4450018E4450020E4450028E4450030E4450038E4450040E4450048E4450050E4450058E4450060E4450068E4450070E4450078E4450080E4450088E4450090E4450098E44500A0E44500A8E44500B0E44500B8E44500C0E44500C8E44500D0E44500D8E44500E0E44500E8E44500F0E44500F8E4450000E5450008E5450010E5450018E5450020E5450028E5450030E5450038E5450040E5450048E5450050E5450058E5450060E5450068E5450070E5450078E5450080E5450088E5450090E5450098E54500A0E54500A8E54500B0E54500B8E54500C0E54500C8E54500D0E54500D8E54500E0E54500E8E54500F0E54500F8E5450000E6450008E6450010E6450018E6450020E6450028E6450030E6450038E6450040E6450048E6450050E6450058E6450060E6450068E6450070E6450078E6450080E6450088E6450090E6450098E64500A0E64500A8E64500B0E64500B8E64500C0E64500C8E64500D0E64500D8E64500E0E64500E8E64500F0E64500F8E6450000E7450008E7450010E7450018E7450020E7450028E7450030E7450038E7450040E7450048E7450050E7450058E7450060E7450068E7450070E7450078E7450080E7450088E7450090E7450098E74500A0E74500A8E74500B0E74500B8E74500C0E74500C8E74500D0E74500D8E74500E0E74500E8E74500F0E74500F8E7450000E8450008E8450010E8450018E8450020E8450028E8450030E8450038E8450040E8450048E8450050E8450058E8450060E8450068E8450070E8450078E8450080E8450088E8450090E8450098E84500A0E84500A8E84500B0E84500B8E84500C0E84500C8E84500D0E84500D8E84500E0E84500E8E84500F0E84500F8E8450000E9450008E9450010E9450018E9450020E9450028E9450030E9450038E9450040E9450048E9450050E9450058E9450060E9450068E9450070E9450078E9450080E9450088E9450090E9450098E94500A0E94500A8E94500B0E94500B8E94500C0E94500C8E94500D0E94500D8E94500E0E94500E8E94500F0E94500F8E9450000EA450008EA450010EA450018EA450020EA450028EA450030EA450038EA450040EA450048EA450050EA450058EA450060EA450068EA450070EA450078EA450080EA450088EA450090EA450098EA4500A0EA4500A8EA4500B0EA4500B8EA4500C0EA4500C8EA4500D0EA4500D8EA4500E0EA4500E8EA4500F0EA4500F8EA450000EB450008EB450010EB450018EB450020EB450028EB450030EB450038EB450040EB450048EB450050EB450058EB450060EB450068EB450070EB450078EB450080EB450088EB450090EB450098EB4500A0EB4500A8EB4500B0EB4500B8EB4500C0EB4500C8EB4500D0EB4500D8EB4500E0EB4500E8EB4500F0EB4500F8EB450000EC450008EC450010EC450018EC450020EC450028EC450030EC450038EC450040EC450048EC450050EC450058EC450060EC450068EC450070EC450078EC450080EC450088EC450090EC450098EC4500A0EC4500A8EC4500B0EC4500B8EC4500C0EC4500C8EC4500D0EC4500D8EC4500E0EC4500E8EC4500F0EC4500F8EC450000ED450008ED450010ED450018ED450020ED450028ED450030ED450038ED450040ED450048ED450050ED450058ED450060ED450068ED450070ED450078ED450080ED450088ED450090ED450098ED4500A0ED4500A8ED4500B0ED4500B8ED4500C0ED4500C8ED4500D0ED4500D8ED4500E0ED4500E8ED4500F0ED4500F8ED450000EE450008EE450010EE450018EE450020EE450028EE450030EE450038EE450040EE450048EE450050EE450058EE450060EE450068EE450070EE450078EE450080EE450088EE450090EE450098EE4500A0EE4500A8EE4500B0EE4500B8EE4500C0EE4500C8EE4500D0EE4500D8EE4500E0EE4500E8EE4500F0EE4500F8EE450000EF450008EF450010EF450018EF450020EF450028EF450030EF450038EF450040EF450048EF450050EF450058EF450060EF450068EF450070EF450078EF450080EF450088EF450090EF450098EF4500A0EF4500A8EF4500B0EF4500B8EF4500C0EF4500C8EF4500D0EF4500D8EF4500E0EF4500E8EF4500F0EF4500F8EF450000F0450008F0450010F0450018F0450020F0450028F0450030F0450038F0450040F0450048F0450050F0450058F0450060F0450068F0450070F0450078F0450080F0450088F0450090F0450098F04500A0F04500A8F04500B0F04500B8F04500C0F04500C8F04500D0F04500D8F04500E0F04500E8F04500F0F04500F8F0450000F1450008F1450010F1450018F1450020F1450028F1450030F1450038F1450040F1450048F1450050F1450058F1450060F1450068F1450070F1450078F1450080F1450088F1450090F1450098F14500A0F14500A8F14500B0F14500B8F14500C0F14500C8F14500D0F14500D8F14500E0F14500E8F14500F0F14500F8F1450000F2450008F2450010F2450018F2450020F2450028F2450030F2450038F2450040F2450048F2450050F2450058F2450060F2450068F2450070F2450078F2450080F2450088F2450090F2450098F24500A0F24500A8F24500B0F24500B8F24500C0F24500C8F24500D0F24500D8F24500E0F24500E8F24500F0F24500F8F2450000F3450008F3450010F3450018F3450020F3450028F3450030F3450038F3450040F3450048F3450050F3450058F3450060F3450068F3450070F3450078F3450080F3450088F3450090F3450098F34500A0F34500A8F34500B0F34500B8F34500C0F34500C8F34500D0F34500D8F34500E0F34500E8F34500F0F34500F8F3450000F4450008F4450010F4450018F4450020F4450028F4450030F4450038F4450040F4450048F4450050F4450058F4450060F4450068F4450070F4450078F4450080F4450088F4450090F4450098F44500A0F44500A8F44500B0F44500B8F44500C0F44500C8F44500D0F44500D8F44500E0F44500E8F44500F0F44500F8F4450000F5450008F5450010F5450018F5450020F5450028F5450030F5450038F5450040F5450048F5450050F5450058F5450060F5450068F5450070F5450078F5450080F5450088F5450090F5450098F54500A0F54500A8F54500B0F54500B8F54500C0F54500C8F54500D0F54500D8F54500E0F54500E8F54500F0F54500F8F5450000F6450008F6450010F6450018F6450020F6450028F6450030F6450038F6450040F6450048F6450050F6450058F6450060F6450068F6450070F6450078F6450080F6450088F6450090F6450098F64500A0F64500A8F64500B0F64500B8F64500C0F64500C8F64500D0F64500D8F64500E0F64500E8F64500F0F64500F8F6450000F7450008F7450010F7450018F7450020F7450028F7450030F7450038F7450040F7450048F7450050F7450058F7450060F7450068F7450070F7450078F7450080F7450088F7450090F7450098F74500A0F74500A8F74500B0F74500B8F74500C0F74500C8F74500D0F74500D8F74500E0F74500E8F74500F0F74500F8F7450000F8450008F8450010F8450018F8450020F8450028F8450030F8450038F8450040F8450048F8450050F8450058F8450060F8450068F8450070F8450078F8450080F8450088F8450090F8450098F84500A0F84500A8F84500B0F84500B8F84500C0F84500C8F84500D0F84500D8F84500E0F84500E8F84500F0F84500F8F8450000F9450008F9450010F9450018F9450020F9450028F9450030F9450038F9450040F9450048F9450050F9450058F9450060F9450068F9450070F9450078F9450080F9450088F9450090F9450098F94500A0F94500A8F94500B0F94500B8F94500C0F94500C8F94500D0F94500D8F94500E0F94500E8F94500F0F94500F8F9450000FA450008FA450010FA450018FA450020FA450028FA450030FA450038FA450040FA450048FA450050FA450058FA450060FA450068FA450070FA450078FA450080FA450088FA450090FA450098FA4500A0FA4500A8FA4500B0FA4500B8FA4500C0FA4500C8FA4500D0FA4500D8FA4500E0FA4500E8FA4500F0FA4500F8FA450000FB450008FB450010FB450018FB450020FB450028FB450030FB450038FB450040FB450048FB450050FB450058FB450060FB450068FB450070FB450078FB450080FB450088FB450090FB450098FB4500A0FB4500A8FB4500B0FB4500B8FB4500C0FB4500C8FB4500D0FB4500D8FB4500E0FB4500E8FB4500F0FB4500F8FB450000FC450008FC450010FC450018FC450020FC450028FC450030FC450038FC450040FC450048FC450050FC450058FC450060FC450068FC450070FC450078FC450080FC450088FC450090FC450098FC4500A0FC4500A8FC4500B0FC4500B8FC4500C0FC4500C8FC4500D0FC4500D8FC4500E0FC4500E8FC4500F0FC4500F8FC450000FD450008FD450010FD450018FD450020FD450028FD450030FD450038FD450040FD450048FD450050FD450058FD450060FD450068FD450070FD450078FD450080FD450088FD450090FD450098FD4500A0FD4500A8FD4500B0FD4500B8FD4500C0FD4500C8FD4500D0FD4500D8FD4500E0FD4500E8FD4500F0FD4500F8FD450000FE450008FE450010FE450018FE450020FE450028FE450030FE450038FE450040FE450048FE450050FE450058FE450060FE450068FE450070FE450078FE450080FE450088FE450090FE450098FE4500A0FE4500A8FE4500B0FE4500B8FE4500C0FE4500C8FE4500D0FE4500D8FE4500E0FE4500E8FE4500F0FE4500F8FE450000FF450008FF450010FF450018FF450020FF450028FF450030FF450038FF450040FF450048FF450050FF450058FF450060FF450068FF450070FF450078FF450080FF450088FF450090FF450098FF4500A0FF4500A8FF4500B0FF4500B8FF4500C0FF4500C8FF4500D0FF4500D8FF4500E0FF4500E8FF4500F0FF4500F8FF45"> : tensor<8192xf32>}> : () -> tensor<8192xf32>
    %10 = "mix.prim.reshape"(%9) <{shape = [8192, 1]}> : (tensor<8192xf32>) -> tensor<8192x1xf32>
    %11 = "mix.prim.permute"(%10) <{dims = [0, 1]}> : (tensor<8192x1xf32>) -> tensor<8192x1xf32>
    %12 = "mix.prim.reshape"(%8) <{shape = [80, 1]}> : (tensor<80xf32>) -> tensor<80x1xf32>
    %13 = "mix.prim.permute"(%12) <{dims = [1, 0]}> : (tensor<80x1xf32>) -> tensor<1x80xf32>
    %14 = "mix.prim.mul"(%11, %13) : (tensor<8192x1xf32>, tensor<1x80xf32>) -> tensor<8192x80xf32>
    %15 = "mix.prim.concat"(%14, %14) <{axis = 1 : i64}> : (tensor<8192x80xf32>, tensor<8192x80xf32>) -> tensor<8192x160xf32>
    %16 = "mix.prim.cos"(%15) : (tensor<8192x160xf32>) -> tensor<8192x160xf32>
    %17 = "mix.prim.slice"(%16) <{dim = 0 : i64, end = 2147483647 : i64, start = 0 : i64, step = 1 : i64}> : (tensor<8192x160xf32>) -> tensor<8192x160xf32>
    %18 = "mix.prim.reshape"(%17) <{shape = [8192, 1, 160]}> : (tensor<8192x160xf32>) -> tensor<8192x1x160xf32>
    %19 = "mix.prim.slice"(%18) <{dim = 2 : i64, end = 2147483647 : i64, start = 0 : i64, step = 1 : i64}> : (tensor<8192x1x160xf32>) -> tensor<8192x1x160xf32>
    %20 = "mix.prim.constant"() <{value = 1.000000e+00 : f16}> : () -> f16
    %21 = "mix.prim.mul"(%19, %20) : (tensor<8192x1x160xf32>, f16) -> tensor<8192x1x160xf32>
    %22 = "mix.prim.sin"(%15) : (tensor<8192x160xf32>) -> tensor<8192x160xf32>
    %23 = "mix.prim.slice"(%22) <{dim = 0 : i64, end = 2147483647 : i64, start = 0 : i64, step = 1 : i64}> : (tensor<8192x160xf32>) -> tensor<8192x160xf32>
    %24 = "mix.prim.reshape"(%23) <{shape = [8192, 1, 160]}> : (tensor<8192x160xf32>) -> tensor<8192x1x160xf32>
    %25 = "mix.prim.slice"(%24) <{dim = 2 : i64, end = 2147483647 : i64, start = 0 : i64, step = 1 : i64}> : (tensor<8192x1x160xf32>) -> tensor<8192x1x160xf32>
    %26 = "mix.prim.constant"() <{value = 1.000000e+00 : f16}> : () -> f16
    %27 = "mix.prim.mul"(%25, %26) : (tensor<8192x1x160xf32>, f16) -> tensor<8192x1x160xf32>
    "func.return"(%21, %27) : (tensor<8192x1x160xf32>, tensor<8192x1x160xf32>) -> ()
  }) : () -> ()
}) : () -> ()